unsigned char g_model[] = {
  0x20, 0x00, 0x00, 0x00, 0x54, 0x46, 0x4c, 0x33, 0x00, 0x00, 0x00, 0x00,
  0x14, 0x00, 0x20, 0x00, 0x1c, 0x00, 0x18, 0x00, 0x14, 0x00, 0x10, 0x00,
  0x0c, 0x00, 0x00, 0x00, 0x08, 0x00, 0x04, 0x00, 0x14, 0x00, 0x00, 0x00,
  0x1c, 0x00, 0x00, 0x00, 0x84, 0x00, 0x00, 0x00, 0xdc, 0x00, 0x00, 0x00,
  0xf0, 0x0b, 0x00, 0x00, 0x00, 0x0c, 0x00, 0x00, 0x48, 0x14, 0x00, 0x00,
  0x03, 0x00, 0x00, 0x00, 0x01, 0x00, 0x00, 0x00, 0x04, 0x00, 0x00, 0x00,
  0x9a, 0xf3, 0xff, 0xff, 0x0c, 0x00, 0x00, 0x00, 0x1c, 0x00, 0x00, 0x00,
  0x38, 0x00, 0x00, 0x00, 0x0f, 0x00, 0x00, 0x00, 0x73, 0x65, 0x72, 0x76,
  0x69, 0x6e, 0x67, 0x5f, 0x64, 0x65, 0x66, 0x61, 0x75, 0x6c, 0x74, 0x00,
  0x01, 0x00, 0x00, 0x00, 0x04, 0x00, 0x00, 0x00, 0x98, 0xff, 0xff, 0xff,
  0x0c, 0x00, 0x00, 0x00, 0x04, 0x00, 0x00, 0x00, 0x07, 0x00, 0x00, 0x00,
  0x64, 0x65, 0x6e, 0x73, 0x65, 0x5f, 0x32, 0x00, 0x01, 0x00, 0x00, 0x00,
  0x04, 0x00, 0x00, 0x00, 0x92, 0xf4, 0xff, 0xff, 0x04, 0x00, 0x00, 0x00,
  0x0b, 0x00, 0x00, 0x00, 0x64, 0x65, 0x6e, 0x73, 0x65, 0x5f, 0x69, 0x6e,
  0x70, 0x75, 0x74, 0x00, 0x02, 0x00, 0x00, 0x00, 0x34, 0x00, 0x00, 0x00,
  0x04, 0x00, 0x00, 0x00, 0xdc, 0xff, 0xff, 0xff, 0x0f, 0x00, 0x00, 0x00,
  0x04, 0x00, 0x00, 0x00, 0x13, 0x00, 0x00, 0x00, 0x43, 0x4f, 0x4e, 0x56,
  0x45, 0x52, 0x53, 0x49, 0x4f, 0x4e, 0x5f, 0x4d, 0x45, 0x54, 0x41, 0x44,
  0x41, 0x54, 0x41, 0x00, 0x08, 0x00, 0x0c, 0x00, 0x08, 0x00, 0x04, 0x00,
  0x08, 0x00, 0x00, 0x00, 0x0e, 0x00, 0x00, 0x00, 0x04, 0x00, 0x00, 0x00,
  0x13, 0x00, 0x00, 0x00, 0x6d, 0x69, 0x6e, 0x5f, 0x72, 0x75, 0x6e, 0x74,
  0x69, 0x6d, 0x65, 0x5f, 0x76, 0x65, 0x72, 0x73, 0x69, 0x6f, 0x6e, 0x00,
  0x10, 0x00, 0x00, 0x00, 0x10, 0x0b, 0x00, 0x00, 0x08, 0x0b, 0x00, 0x00,
  0xf4, 0x0a, 0x00, 0x00, 0xbc, 0x0a, 0x00, 0x00, 0x2c, 0x0a, 0x00, 0x00,
  0x1c, 0x02, 0x00, 0x00, 0x0c, 0x01, 0x00, 0x00, 0xbc, 0x00, 0x00, 0x00,
  0xb4, 0x00, 0x00, 0x00, 0xac, 0x00, 0x00, 0x00, 0xa4, 0x00, 0x00, 0x00,
  0x9c, 0x00, 0x00, 0x00, 0x94, 0x00, 0x00, 0x00, 0x8c, 0x00, 0x00, 0x00,
  0x6c, 0x00, 0x00, 0x00, 0x04, 0x00, 0x00, 0x00, 0x4a, 0xf5, 0xff, 0xff,
  0x04, 0x00, 0x00, 0x00, 0x58, 0x00, 0x00, 0x00, 0x0c, 0x00, 0x00, 0x00,
  0x08, 0x00, 0x0e, 0x00, 0x08, 0x00, 0x04, 0x00, 0x08, 0x00, 0x00, 0x00,
  0x10, 0x00, 0x00, 0x00, 0x28, 0x00, 0x00, 0x00, 0x00, 0x00, 0x06, 0x00,
  0x08, 0x00, 0x04, 0x00, 0x06, 0x00, 0x00, 0x00, 0x04, 0x00, 0x00, 0x00,
  0x01, 0x00, 0x00, 0x00, 0xeb, 0x03, 0x00, 0x00, 0x00, 0x00, 0x0a, 0x00,
  0x10, 0x00, 0x0c, 0x00, 0x08, 0x00, 0x04, 0x00, 0x0a, 0x00, 0x00, 0x00,
  0x01, 0x00, 0x00, 0x00, 0x02, 0x00, 0x00, 0x00, 0x04, 0x00, 0x00, 0x00,
  0x06, 0x00, 0x00, 0x00, 0x32, 0x2e, 0x31, 0x35, 0x2e, 0x30, 0x00, 0x00,
  0xae, 0xf5, 0xff, 0xff, 0x04, 0x00, 0x00, 0x00, 0x10, 0x00, 0x00, 0x00,
  0x31, 0x2e, 0x31, 0x34, 0x2e, 0x30, 0x00, 0x00, 0x00, 0x00, 0x00, 0x00,
  0x00, 0x00, 0x00, 0x00, 0x84, 0xed, 0xff, 0xff, 0x88, 0xed, 0xff, 0xff,
  0x8c, 0xed, 0xff, 0xff, 0x90, 0xed, 0xff, 0xff, 0x94, 0xed, 0xff, 0xff,
  0x98, 0xed, 0xff, 0xff, 0xe2, 0xf5, 0xff, 0xff, 0x04, 0x00, 0x00, 0x00,
  0x40, 0x00, 0x00, 0x00, 0x04, 0xfd, 0xfc, 0xfc, 0x03, 0x04, 0x17, 0x00,
  0x00, 0x05, 0xfd, 0xfb, 0x04, 0xfc, 0x01, 0x00, 0x84, 0xfa, 0x00, 0x03,
  0x00, 0x70, 0xfe, 0x7b, 0x81, 0x04, 0xfc, 0xfc, 0xfc, 0x03, 0xfc, 0x06,
  0x7c, 0x6f, 0x04, 0x07, 0x04, 0xea, 0x05, 0x3b, 0x18, 0x05, 0xfb, 0x87,
  0xfc, 0x04, 0x20, 0xfc, 0xfc, 0xa2, 0x05, 0x04, 0x00, 0x00, 0xef, 0x72,
  0x00, 0xfc, 0xd7, 0x04, 0x7e, 0xfc, 0xaf, 0xfc, 0x2e, 0xf6, 0xff, 0xff,
  0x04, 0x00, 0x00, 0x00, 0x00, 0x01, 0x00, 0x00, 0x21, 0xfb, 0xff, 0xff,
  0xc7, 0xfd, 0xff, 0xff, 0x5e, 0xff, 0xff, 0xff, 0x4e, 0xff, 0xff, 0xff,
  0xb2, 0xf3, 0xff, 0xff, 0xef, 0xfa, 0xff, 0xff, 0x27, 0xfa, 0xff, 0xff,
  0xc5, 0xff, 0xff, 0xff, 0xb4, 0xff, 0xff, 0xff, 0xb0, 0xfb, 0xff, 0xff,
  0xbe, 0xfd, 0xff, 0xff, 0x42, 0xff, 0xff, 0xff, 0x21, 0xfb, 0xff, 0xff,
  0x5a, 0xff, 0xff, 0xff, 0x24, 0xfc, 0xff, 0xff, 0xd6, 0xfe, 0xff, 0xff,
  0x65, 0xff, 0xff, 0xff, 0xf4, 0xfe, 0xff, 0xff, 0x7a, 0xff, 0xff, 0xff,
  0x0d, 0xf5, 0xff, 0xff, 0xe2, 0xff, 0xff, 0xff, 0x1c, 0xff, 0xff, 0xff,
  0x41, 0xf9, 0xff, 0xff, 0x84, 0xff, 0xff, 0xff, 0x5f, 0xff, 0xff, 0xff,
  0xe1, 0xfa, 0xff, 0xff, 0x1c, 0xff, 0xff, 0xff, 0xdd, 0xfe, 0xff, 0xff,
  0xc7, 0xff, 0xff, 0xff, 0x57, 0xf5, 0xff, 0xff, 0xef, 0xfe, 0xff, 0xff,
  0xbb, 0xe5, 0xff, 0xff, 0xe9, 0xff, 0xff, 0xff, 0xb1, 0xfe, 0xff, 0xff,
  0xb5, 0xfb, 0xff, 0xff, 0x7c, 0xe1, 0xff, 0xff, 0xb4, 0xfe, 0xff, 0xff,
  0x9a, 0xf0, 0xff, 0xff, 0xc0, 0xed, 0xff, 0xff, 0x0c, 0xed, 0xff, 0xff,
  0xcc, 0xf9, 0xff, 0xff, 0x10, 0xfc, 0xff, 0xff, 0x87, 0xff, 0xff, 0xff,
  0xe6, 0xff, 0xff, 0xff, 0x4f, 0xfe, 0xff, 0xff, 0xa2, 0xee, 0xff, 0xff,
  0x9e, 0xe7, 0xff, 0xff, 0x51, 0xff, 0xff, 0xff, 0xd0, 0xfe, 0xff, 0xff,
  0x9d, 0xfa, 0xff, 0xff, 0x58, 0xfa, 0xff, 0xff, 0x3a, 0xfb, 0xff, 0xff,
  0x83, 0xff, 0xff, 0xff, 0x9c, 0xff, 0xff, 0xff, 0xf2, 0xf8, 0xff, 0xff,
  0x06, 0xff, 0xff, 0xff, 0x06, 0xff, 0xff, 0xff, 0x98, 0xfe, 0xff, 0xff,
  0x4b, 0xf2, 0xff, 0xff, 0xde, 0xfe, 0xff, 0xff, 0x59, 0xff, 0xff, 0xff,
  0x88, 0xff, 0xff, 0xff, 0x97, 0xee, 0xff, 0xff, 0x65, 0xff, 0xff, 0xff,
  0x3a, 0xf7, 0xff, 0xff, 0x04, 0x00, 0x00, 0x00, 0x00, 0x08, 0x00, 0x00,
  0xf1, 0xef, 0x02, 0xfe, 0x01, 0xf2, 0xfa, 0x01, 0x01, 0x03, 0xf1, 0x02,
  0x04, 0xf0, 0xfd, 0x01, 0xec, 0xf9, 0x00, 0xfc, 0x02, 0xf4, 0xff, 0xed,
  0xe3, 0x00, 0xf9, 0xfe, 0xf3, 0xfd, 0x04, 0xf7, 0xe9, 0xf4, 0xfe, 0xf0,
  0x03, 0xf5, 0xf2, 0xf4, 0xf8, 0xfe, 0x00, 0xee, 0x03, 0x03, 0xef, 0x02,
  0x02, 0xf9, 0xfe, 0xff, 0xff, 0x02, 0xf6, 0xf3, 0xff, 0x02, 0xfe, 0x00,
  0xeb, 0x01, 0xf6, 0xef, 0xf2, 0xf4, 0x04, 0xfd, 0x02, 0xf0, 0xfa, 0x00,
  0x00, 0x02, 0xf5, 0xfb, 0xfe, 0xf2, 0x02, 0x00, 0xec, 0xf7, 0x03, 0xfe,
  0xfd, 0xf6, 0x02, 0xee, 0xe8, 0x01, 0xf5, 0x00, 0xf5, 0xfd, 0x00, 0xf5,
  0xe9, 0xf6, 0xfd, 0xf0, 0xff, 0xf7, 0xf3, 0xfb, 0xf9, 0x01, 0x01, 0xef,
  0x02, 0xfe, 0xee, 0x00, 0x02, 0xfd, 0x05, 0x00, 0xfd, 0x02, 0xfb, 0xfd,
  0x02, 0xfd, 0xfc, 0xfb, 0xe6, 0x03, 0xfa, 0xed, 0xf4, 0xf4, 0x02, 0x04,
  0x00, 0xef, 0xfa, 0x03, 0x00, 0x02, 0xf4, 0x01, 0x01, 0xee, 0x00, 0xfd,
  0xe9, 0xf3, 0x00, 0xfd, 0x03, 0xf9, 0xfe, 0xec, 0xe6, 0x01, 0xfa, 0x00,
  0xf1, 0xff, 0xff, 0xf3, 0xec, 0xf9, 0xff, 0xf2, 0xfe, 0xf5, 0xef, 0xfd,
  0xf6, 0x00, 0x01, 0xe8, 0x01, 0x01, 0xf1, 0x05, 0x03, 0xf9, 0x01, 0x01,
  0x02, 0x00, 0xfc, 0xfa, 0x03, 0xff, 0xfe, 0x01, 0xe6, 0x01, 0xf6, 0xef,
  0xf7, 0x02, 0xfe, 0x00, 0xf9, 0xf9, 0xf6, 0x02, 0xfe, 0xfd, 0x01, 0x00,
  0xfd, 0x03, 0x00, 0xfe, 0xfe, 0xfe, 0xfd, 0x02, 0x01, 0xf6, 0xfc, 0xf6,
  0xfd, 0xfb, 0x01, 0xfd, 0xff, 0x01, 0x03, 0xf8, 0xf5, 0xf3, 0xfb, 0xf4,
  0x00, 0xfd, 0xf6, 0xf6, 0xf8, 0xfd, 0xfe, 0x01, 0x03, 0xf8, 0xf4, 0x03,
  0x02, 0x01, 0xfe, 0xfb, 0xfe, 0xfe, 0x01, 0xf6, 0x03, 0xfe, 0xff, 0x01,
  0xf6, 0x03, 0x03, 0xff, 0x04, 0x07, 0x00, 0xff, 0x04, 0x00, 0xfe, 0xfd,
  0xfe, 0xfe, 0x09, 0xff, 0xff, 0x00, 0xff, 0x01, 0x00, 0x00, 0xfd, 0xf8,
  0xff, 0xfe, 0xfd, 0x02, 0xfd, 0xfe, 0x03, 0x06, 0x00, 0xf9, 0xfc, 0xfe,
  0xfe, 0x00, 0x03, 0xfb, 0x02, 0x01, 0xfb, 0xff, 0x00, 0x01, 0x03, 0xfe,
  0xfd, 0x02, 0xff, 0x05, 0xfc, 0xfe, 0x00, 0x02, 0xff, 0x03, 0x01, 0x01,
  0x02, 0x00, 0x02, 0x03, 0x00, 0xff, 0xfe, 0x02, 0x1d, 0xf8, 0xfb, 0xf6,
  0x16, 0x26, 0x03, 0x03, 0x03, 0x17, 0xf8, 0xfc, 0x1c, 0xf5, 0x03, 0x00,
  0xf6, 0xf6, 0xff, 0xf9, 0x03, 0xf6, 0xfe, 0xfb, 0xf6, 0x29, 0xfb, 0xfa,
  0xf6, 0xf9, 0xfe, 0x1c, 0xf8, 0xfa, 0x1c, 0x2b, 0x33, 0xf5, 0x16, 0xfc,
  0x03, 0x27, 0xff, 0xf6, 0xfa, 0x2a, 0x11, 0xf8, 0xf9, 0xf8, 0x24, 0x1f,
  0x01, 0x01, 0xf9, 0xf7, 0xff, 0xfd, 0xf3, 0x26, 0xf9, 0xfb, 0xf5, 0xf6,
  0x08, 0x02, 0x08, 0x05, 0x01, 0x04, 0xf9, 0x01, 0xfe, 0x06, 0x03, 0x02,
  0x06, 0x05, 0x03, 0x00, 0xf1, 0x04, 0x02, 0xf8, 0x00, 0x01, 0x01, 0xf1,
  0xeb, 0x00, 0x02, 0x03, 0x04, 0xfb, 0x00, 0xf4, 0xf1, 0x02, 0x08, 0xf3,
  0x02, 0xfb, 0xff, 0xfe, 0xfb, 0x02, 0x04, 0xf4, 0x04, 0x00, 0xf1, 0x06,
  0x03, 0x06, 0x02, 0x04, 0xfe, 0x01, 0xfa, 0x01, 0x03, 0x03, 0xff, 0x04,
  0xea, 0x04, 0xfe, 0x02, 0xf7, 0x09, 0x0d, 0x06, 0xf7, 0xf3, 0xe9, 0xff,
  0xfd, 0x02, 0x07, 0x05, 0xfb, 0x04, 0x02, 0x03, 0xfc, 0x0a, 0xfd, 0x00,
  0x00, 0xef, 0xff, 0xed, 0xff, 0xfb, 0xff, 0x08, 0x00, 0x03, 0x05, 0xf4,
  0xef, 0xed, 0xfa, 0xed, 0xfe, 0x09, 0xf2, 0xed, 0xee, 0x00, 0x06, 0xff,
  0x07, 0xf3, 0xf4, 0x0b, 0x08, 0xfe, 0x00, 0xfb, 0xff, 0x01, 0x04, 0xee,
  0xff, 0x04, 0xfe, 0x00, 0xef, 0x0c, 0xfd, 0x07, 0xfe, 0x2d, 0x34, 0x29,
  0xfc, 0xfd, 0x02, 0xff, 0x03, 0xff, 0x23, 0x33, 0xff, 0x28, 0x00, 0x01,
  0xf3, 0x1f, 0x00, 0xff, 0xff, 0xf0, 0xfb, 0xeb, 0xf6, 0xfa, 0x2c, 0x27,
  0x35, 0x01, 0x25, 0xfc, 0xf1, 0xf6, 0xfb, 0x01, 0xff, 0x59, 0x02, 0xfc,
  0xff, 0xf8, 0x42, 0xf6, 0x20, 0xfe, 0xff, 0x20, 0x22, 0xf5, 0xfd, 0xfb,
  0xfe, 0x01, 0x3a, 0xf0, 0x00, 0x2b, 0x11, 0x03, 0xf5, 0x35, 0xfc, 0x28,
  0xff, 0xf8, 0xfc, 0xf7, 0x02, 0x02, 0x03, 0x01, 0xff, 0xfe, 0xf3, 0xfc,
  0x02, 0xf8, 0x00, 0x03, 0xf6, 0xf4, 0x00, 0xfb, 0x01, 0x01, 0xfd, 0xff,
  0xf5, 0x00, 0xf5, 0xfe, 0xf3, 0xf8, 0xfb, 0xff, 0xff, 0x00, 0x04, 0x03,
  0xfe, 0xf3, 0x00, 0x01, 0xff, 0x01, 0xfe, 0xef, 0xf8, 0x00, 0xfd, 0xf7,
  0xfd, 0xf7, 0x00, 0x03, 0x03, 0x01, 0xf1, 0xfc, 0xfd, 0x00, 0xf2, 0xff,
  0xff, 0xfc, 0xf3, 0xf9, 0xf0, 0xf3, 0x03, 0xfe, 0x03, 0xf1, 0xf9, 0x02,
  0x03, 0x00, 0xf0, 0x03, 0x02, 0xf0, 0x02, 0xfe, 0xf1, 0xf5, 0xfe, 0xfe,
  0xfe, 0xf7, 0x01, 0xea, 0xe7, 0xff, 0xf5, 0x02, 0xf4, 0xff, 0x02, 0xf5,
  0xee, 0xf9, 0x01, 0xf0, 0x01, 0xf5, 0xf2, 0xf8, 0xfa, 0x01, 0x00, 0xf2,
  0x03, 0xfc, 0xf2, 0x03, 0xff, 0xf8, 0x02, 0xfc, 0x01, 0xfe, 0xfb, 0xf9,
  0xfd, 0x01, 0xf9, 0xfe, 0xe7, 0x02, 0xf5, 0xf2, 0xf6, 0xf9, 0xff, 0xfa,
  0xf9, 0xf8, 0x07, 0x00, 0xfe, 0xfa, 0xfb, 0x04, 0xf6, 0x05, 0xfe, 0x02,
  0x02, 0x04, 0x01, 0xfb, 0xfe, 0x01, 0xff, 0xff, 0x02, 0xfe, 0xf8, 0x01,
  0x00, 0xf7, 0xf9, 0xf5, 0x02, 0xfc, 0xf2, 0xf8, 0x07, 0x01, 0xfd, 0xfc,
  0x03, 0x05, 0x04, 0x00, 0xfc, 0xf1, 0xe5, 0x08, 0x03, 0xfc, 0xfa, 0xff,
  0x02, 0x04, 0x01, 0xff, 0x03, 0xfc, 0xfe, 0xff, 0x01, 0x01, 0xfc, 0x03,
  0xfb, 0xfc, 0x08, 0xff, 0xfc, 0xf9, 0x03, 0xfd, 0xfd, 0xfd, 0x01, 0x04,
  0xfa, 0x06, 0xff, 0xfe, 0xfe, 0x08, 0xff, 0xff, 0x01, 0xfb, 0x02, 0xfe,
  0x02, 0xff, 0x00, 0x01, 0xfc, 0xfa, 0xfc, 0xf7, 0x01, 0xfc, 0xfc, 0xf5,
  0x06, 0xfe, 0xff, 0xff, 0x02, 0x05, 0x03, 0xff, 0xff, 0xf5, 0xe6, 0x0a,
  0x01, 0xff, 0xff, 0x03, 0x03, 0xfe, 0x02, 0xfd, 0x01, 0xfa, 0xff, 0x02,
  0xfb, 0x07, 0x00, 0x06, 0xf1, 0xee, 0x03, 0x01, 0xfe, 0xf2, 0xfb, 0x00,
  0xfd, 0x01, 0xee, 0x04, 0x04, 0xec, 0xfd, 0x02, 0xeb, 0xf5, 0xff, 0xfa,
  0x01, 0xf4, 0xfc, 0xec, 0xe4, 0xfe, 0xf0, 0x04, 0xf2, 0xfd, 0x02, 0xf3,
  0xed, 0xfb, 0x04, 0xf1, 0x02, 0xf5, 0xee, 0xf6, 0xfc, 0xfc, 0x01, 0xed,
  0x02, 0x01, 0xec, 0x03, 0xff, 0xf7, 0x04, 0xff, 0x03, 0x03, 0xfd, 0xf6,
  0x03, 0x01, 0xfa, 0xfa, 0xeb, 0x04, 0xf1, 0xea, 0xfd, 0x01, 0x01, 0x01,
  0xfd, 0x01, 0xf9, 0xff, 0x02, 0xfc, 0xfc, 0x03, 0x00, 0xfa, 0x00, 0xfe,
  0xea, 0xfb, 0x02, 0xfb, 0x00, 0xfb, 0x02, 0xed, 0xde, 0x02, 0xff, 0xfb,
  0x02, 0xfa, 0xfe, 0xf5, 0xeb, 0xf7, 0xfe, 0xf3, 0x03, 0xf5, 0xfb, 0xf7,
  0xfb, 0xfb, 0xfb, 0xf0, 0x02, 0xfe, 0xec, 0xff, 0x03, 0xf3, 0xfd, 0x02,
  0xfe, 0xfc, 0xfa, 0xf7, 0xfd, 0x02, 0x03, 0xf7, 0xe2, 0xfd, 0xf8, 0xfd,
  0x02, 0x05, 0x02, 0x08, 0x04, 0x01, 0x00, 0xfe, 0x01, 0x00, 0x02, 0x02,
  0xff, 0x01, 0x00, 0xff, 0x04, 0x05, 0x01, 0xf8, 0x01, 0xfd, 0xfe, 0x03,
  0xfd, 0x02, 0x04, 0x08, 0xff, 0xf9, 0xfe, 0xfa, 0xfe, 0x01, 0xff, 0xf8,
  0x05, 0xff, 0xff, 0xfe, 0x00, 0x08, 0xff, 0xff, 0xff, 0x01, 0xf8, 0x08,
  0x03, 0xfc, 0xfc, 0x04, 0x00, 0x01, 0xff, 0x00, 0xfe, 0x04, 0xff, 0x06,
  0xfe, 0xfe, 0x01, 0x01, 0xff, 0xff, 0xff, 0x00, 0x00, 0xff, 0x00, 0xfe,
  0xff, 0xff, 0xff, 0x02, 0xff, 0x01, 0x01, 0xfd, 0xfe, 0xfe, 0x00, 0x02,
  0x01, 0xfe, 0x03, 0x02, 0x00, 0x01, 0xff, 0xfd, 0xfd, 0x03, 0x00, 0x00,
  0xfd, 0x00, 0xfe, 0x01, 0xfe, 0x01, 0x02, 0xfe, 0xfd, 0x01, 0x02, 0xff,
  0x02, 0xfe, 0x02, 0x00, 0x01, 0xfd, 0xff, 0x00, 0x02, 0x03, 0xfe, 0x00,
  0xfe, 0xfd, 0x02, 0xfe, 0x02, 0xfe, 0x01, 0xfd, 0xfe, 0x00, 0x01, 0xff,
  0x01, 0xff, 0xfc, 0xfd, 0x02, 0xfe, 0x02, 0x00, 0x02, 0x00, 0xfd, 0x03,
  0xe5, 0xfe, 0xff, 0xfa, 0xfe, 0xfa, 0x02, 0xea, 0xd6, 0x00, 0x01, 0x00,
  0x01, 0xfd, 0x00, 0xf8, 0xe6, 0xfa, 0x00, 0xf1, 0x00, 0xf4, 0xfc, 0xfa,
  0xf9, 0xfe, 0x00, 0xe8, 0x01, 0xfe, 0xed, 0x00, 0x01, 0xf7, 0x01, 0x00,
  0xff, 0xfe, 0xf9, 0xf9, 0xfd, 0x01, 0xfb, 0x00, 0xe0, 0x02, 0xff, 0x01,
  0xf7, 0x01, 0xfb, 0x00, 0xf9, 0xf7, 0xf1, 0xfe, 0xff, 0x00, 0xfc, 0x04,
  0xfe, 0x01, 0xff, 0x02, 0x02, 0x03, 0x01, 0x01, 0x01, 0xf6, 0xff, 0xf7,
  0xfe, 0x00, 0xfb, 0x01, 0x02, 0x00, 0x02, 0xf3, 0xf2, 0xf6, 0xfa, 0xf4,
  0xff, 0x03, 0xf6, 0xf3, 0xf6, 0xff, 0xfd, 0xff, 0xff, 0xf6, 0xf4, 0x01,
  0x01, 0x01, 0xff, 0xf9, 0x02, 0xfd, 0xfe, 0xf8, 0x00, 0xff, 0xfd, 0xfd,
  0xf6, 0x02, 0xfe, 0xff, 0xfd, 0x00, 0xff, 0xfd, 0x02, 0x03, 0xfe, 0xfe,
  0xfd, 0x01, 0x01, 0x01, 0xff, 0x00, 0x00, 0xff, 0xff, 0xfd, 0xfe, 0x00,
  0x03, 0xfd, 0xff, 0x00, 0xfd, 0x02, 0x02, 0xff, 0x02, 0x00, 0xff, 0x00,
  0xfd, 0x00, 0xfe, 0x02, 0x02, 0xfd, 0x01, 0xfe, 0x00, 0xff, 0xfe, 0xfe,
  0xfe, 0x00, 0x01, 0x02, 0x02, 0x00, 0x01, 0x03, 0xfe, 0xfd, 0x02, 0xfd,
  0x01, 0x01, 0xfe, 0xff, 0xfe, 0x00, 0x03, 0xff, 0xfa, 0xff, 0xfe, 0x01,
  0xfc, 0x02, 0xfa, 0x02, 0x02, 0xfd, 0xf5, 0xff, 0xfd, 0xf2, 0x00, 0xfe,
  0xe8, 0xf9, 0x02, 0xfc, 0xfe, 0xf6, 0x01, 0xe9, 0xe3, 0xfd, 0xfe, 0xfd,
  0xf8, 0x00, 0x02, 0xf4, 0xeb, 0xf5, 0x00, 0xf4, 0x02, 0xf3, 0xff, 0xf0,
  0xf8, 0xfe, 0xff, 0xec, 0x00, 0xfd, 0xef, 0xff, 0xfe, 0xf7, 0x01, 0xfe,
  0x00, 0xfe, 0xf8, 0xf5, 0x03, 0xff, 0x01, 0xfd, 0xe2, 0xff, 0xf4, 0xf1,
  0xf4, 0xf8, 0x02, 0x00, 0xfe, 0xf0, 0xfa, 0xff, 0xff, 0x01, 0xf4, 0xfc,
  0x05, 0xf1, 0x02, 0x01, 0xef, 0xf9, 0x00, 0xfd, 0x01, 0xfa, 0x00, 0xed,
  0xe1, 0xff, 0x00, 0x00, 0xf2, 0xfc, 0xff, 0xf9, 0xe8, 0xfb, 0x00, 0xf2,
  0x02, 0xf8, 0xef, 0xfe, 0xfe, 0xfe, 0x01, 0xeb, 0xfd, 0x03, 0xf0, 0xff,
  0x01, 0x03, 0x03, 0x01, 0x01, 0x00, 0xfb, 0xf9, 0xfe, 0x01, 0x00, 0xfd,
  0xe4, 0x05, 0xfe, 0xef, 0x04, 0x09, 0xfd, 0xff, 0xfd, 0x00, 0x06, 0x01,
  0xfe, 0x05, 0x06, 0x0a, 0x11, 0x02, 0x01, 0x03, 0x02, 0x00, 0xfe, 0xfa,
  0x01, 0xfe, 0x00, 0xff, 0xff, 0x08, 0x09, 0x05, 0x03, 0xfa, 0xfb, 0xfc,
  0xfe, 0xfe, 0x0a, 0xfe, 0x10, 0x02, 0x06, 0x01, 0x05, 0x11, 0xff, 0xfe,
  0x00, 0x01, 0x10, 0xff, 0x01, 0x00, 0x01, 0x11, 0x02, 0x01, 0xfe, 0xfc,
  0xff, 0x08, 0xfe, 0x0a, 0xfc, 0x03, 0x00, 0x03, 0xf9, 0x07, 0x13, 0x07,
  0xff, 0xfc, 0x03, 0xff, 0x02, 0x02, 0x0e, 0x0c, 0xf6, 0x0f, 0xfe, 0xfd,
  0xf5, 0x12, 0xfd, 0xf8, 0xfe, 0xf9, 0xfd, 0xfb, 0xf6, 0x04, 0x09, 0x18,
  0x0e, 0xfd, 0x12, 0xfb, 0xf8, 0xfc, 0xfb, 0xfa, 0x04, 0x0d, 0xff, 0xfb,
  0x02, 0x05, 0x15, 0xf8, 0x06, 0xfd, 0xef, 0x0e, 0x0e, 0xf5, 0xff, 0x06,
  0xfd, 0x02, 0x11, 0xfc, 0xfd, 0x11, 0xfb, 0x02, 0xf7, 0x11, 0xf3, 0x14,
  0xf6, 0x00, 0x03, 0x02, 0xfd, 0xfa, 0xf7, 0x02, 0x03, 0x02, 0x01, 0x00,
  0xfe, 0x00, 0xfc, 0x01, 0xff, 0x01, 0xfd, 0x02, 0xfd, 0xf3, 0xfb, 0xf1,
  0x01, 0xfb, 0xff, 0x01, 0xfd, 0x00, 0xfd, 0xf5, 0xf2, 0xf8, 0xfa, 0xf5,
  0xfc, 0x02, 0xf5, 0xfa, 0xf3, 0xfd, 0xff, 0xfe, 0x03, 0xf9, 0xf6, 0x05,
  0x00, 0x00, 0xfe, 0xfb, 0x02, 0x01, 0x00, 0xf7, 0x01, 0x01, 0xfe, 0xfd,
  0xf8, 0x00, 0xff, 0xfc, 0xf5, 0x15, 0x34, 0x23, 0xfb, 0xf3, 0xec, 0x02,
  0x03, 0x01, 0x25, 0x23, 0xfd, 0x21, 0x02, 0x03, 0xfd, 0x23, 0xff, 0xfd,
  0xfd, 0xee, 0x00, 0xe6, 0xfb, 0xfe, 0x21, 0x1d, 0x28, 0x01, 0x26, 0xf1,
  0xee, 0xee, 0xfc, 0xed, 0xfc, 0x3f, 0xf3, 0xee, 0xec, 0xf8, 0x3c, 0xfd,
  0x18, 0xf6, 0xf3, 0x28, 0x2a, 0xfb, 0xfb, 0xfa, 0xff, 0x03, 0x34, 0xeb,
  0x02, 0x28, 0x03, 0xfe, 0xf0, 0x3c, 0x05, 0x16, 0xfc, 0x03, 0xfd, 0x00,
  0xff, 0x01, 0xfc, 0x03, 0xff, 0xfd, 0xff, 0x01, 0x00, 0xff, 0xfc, 0x02,
  0xdf, 0x01, 0xff, 0xfe, 0x00, 0xf6, 0x00, 0xe7, 0xd4, 0xfe, 0x00, 0xff,
  0x02, 0xfd, 0x03, 0xf8, 0xe2, 0xf5, 0xfb, 0xf2, 0xff, 0xf3, 0xfd, 0xfa,
  0xf8, 0xfd, 0x01, 0xe3, 0x02, 0xff, 0xf0, 0x00, 0x00, 0xf9, 0xfd, 0xfe,
  0x00, 0x01, 0xf4, 0xf1, 0xfd, 0x03, 0x00, 0xfb, 0xdc, 0xfc, 0xfe, 0xfe,
  0xf6, 0xfc, 0xfd, 0x00, 0xf8, 0xf3, 0xf7, 0x02, 0xfe, 0x02, 0xff, 0x02,
  0x00, 0xfe, 0x02, 0xfd, 0xff, 0xfd, 0x00, 0xff, 0xfd, 0xf8, 0xfe, 0xf1,
  0xff, 0xff, 0x01, 0x00, 0x00, 0x00, 0x02, 0xf6, 0xf0, 0xf5, 0xfd, 0xf6,
  0xfe, 0x02, 0xf6, 0xf6, 0xf0, 0xfc, 0xff, 0x01, 0x00, 0xf7, 0xf2, 0x01,
  0x02, 0xfe, 0xfc, 0xfa, 0xff, 0xff, 0x00, 0xf3, 0x02, 0xff, 0x01, 0xfe,
  0xf3, 0xfd, 0xff, 0xfd, 0xfb, 0xfe, 0x05, 0xfc, 0xfb, 0xfd, 0x07, 0xff,
  0x02, 0xff, 0x00, 0x05, 0xff, 0x03, 0x01, 0xfd, 0x01, 0x02, 0x01, 0xfa,
  0xfd, 0xfe, 0xfd, 0x01, 0xff, 0x05, 0xfa, 0x03, 0x02, 0xfc, 0x00, 0xfa,
  0xff, 0xfd, 0xfd, 0xf3, 0x11, 0x02, 0xfa, 0x00, 0x08, 0x04, 0x01, 0x04,
  0xfe, 0xf9, 0xdc, 0x0e, 0x00, 0xfc, 0x03, 0xfd, 0xfe, 0xfe, 0x05, 0xfb,
  0xfd, 0xff, 0xfc, 0xfe, 0x02, 0x04, 0xfd, 0x03, 0xfa, 0xfd, 0x03, 0x03,
  0x03, 0xf7, 0xfa, 0xff, 0x02, 0x01, 0xf4, 0x01, 0x05, 0xf3, 0x00, 0x02,
  0xe7, 0xf9, 0xfd, 0xff, 0x02, 0xf5, 0xfd, 0xec, 0xdd, 0x00, 0x02, 0x00,
  0xf1, 0xfe, 0xfe, 0xf7, 0xea, 0xfa, 0x04, 0xef, 0xfe, 0xf5, 0xfa, 0xf6,
  0xfa, 0xff, 0x00, 0xe5, 0x00, 0x02, 0xef, 0x00, 0xff, 0xfc, 0x01, 0x00,
  0x00, 0x02, 0xfc, 0xf7, 0xfd, 0x04, 0x03, 0xff, 0xe1, 0x02, 0xfc, 0xee,
  0xf0, 0xf4, 0x03, 0xff, 0xfe, 0xed, 0xf9, 0xfe, 0x02, 0x00, 0xef, 0x03,
  0x01, 0xf4, 0x02, 0xfe, 0xf2, 0xf7, 0xfe, 0xfa, 0xfe, 0xf3, 0xfe, 0xee,
  0xed, 0xfd, 0xf2, 0xfd, 0xef, 0xff, 0x05, 0xf4, 0xf2, 0xf6, 0x04, 0xf1,
  0x02, 0xf6, 0xed, 0xf9, 0xf9, 0xff, 0x00, 0xef, 0x04, 0x02, 0xef, 0xfd,
  0x00, 0xfb, 0x03, 0x00, 0x02, 0x00, 0xfb, 0xf9, 0xff, 0x01, 0xf9, 0x00,
  0xec, 0x03, 0xf5, 0xee, 0x29, 0x01, 0x0c, 0x08, 0xfc, 0x13, 0x20, 0x02,
  0x00, 0x29, 0x07, 0x09, 0x37, 0x06, 0xfe, 0x03, 0x0b, 0x07, 0xfd, 0xfe,
  0xff, 0x03, 0xfe, 0x04, 0x0e, 0x14, 0x04, 0x04, 0x05, 0xfd, 0x01, 0xfc,
  0x08, 0x06, 0x34, 0xfc, 0x0f, 0x4b, 0xff, 0x17, 0x25, 0x25, 0x0e, 0x08,
  0x03, 0xf6, 0x81, 0x08, 0x05, 0x04, 0x1c, 0x3a, 0x00, 0xff, 0x24, 0x05,
  0x00, 0x07, 0x12, 0x25, 0x06, 0x18, 0xf5, 0x02, 0x46, 0xff, 0xff, 0xff,
  0x04, 0x00, 0x00, 0x00, 0x80, 0x00, 0x00, 0x00, 0xb3, 0xff, 0xff, 0xff,
  0x9e, 0xff, 0xff, 0xff, 0xb8, 0xff, 0xff, 0xff, 0x93, 0xff, 0xff, 0xff,
  0x9d, 0xff, 0xff, 0xff, 0x4b, 0xfd, 0xff, 0xff, 0x57, 0x06, 0x00, 0x00,
  0xd0, 0xfe, 0xff, 0xff, 0x8a, 0xfe, 0xff, 0xff, 0xb7, 0xff, 0xff, 0xff,
  0xd2, 0xff, 0xff, 0xff, 0xe1, 0xfe, 0xff, 0xff, 0x69, 0xff, 0xff, 0xff,
  0xa6, 0xff, 0xff, 0xff, 0xc3, 0xff, 0xff, 0xff, 0x38, 0xff, 0xff, 0xff,
  0xb0, 0xff, 0xff, 0xff, 0x75, 0x06, 0x00, 0x00, 0x5f, 0xff, 0xff, 0xff,
  0xc6, 0xff, 0xff, 0xff, 0xd9, 0xff, 0xff, 0xff, 0xd3, 0xff, 0xff, 0xff,
  0xeb, 0xfd, 0xff, 0xff, 0x78, 0xfe, 0xff, 0xff, 0x7c, 0xff, 0xff, 0xff,
  0xe8, 0xff, 0xff, 0xff, 0xbc, 0x04, 0x00, 0x00, 0xa2, 0xff, 0xff, 0xff,
  0xcf, 0xfe, 0xff, 0xff, 0xca, 0xff, 0xff, 0xff, 0xb1, 0xff, 0xff, 0xff,
  0xef, 0xfd, 0xff, 0xff, 0xd2, 0xff, 0xff, 0xff, 0x04, 0x00, 0x00, 0x00,
  0x20, 0x00, 0x00, 0x00, 0x04, 0x00, 0x04, 0xff, 0x00, 0xf9, 0x8d, 0x04,
  0x01, 0x01, 0xfd, 0xfb, 0xfc, 0x05, 0x02, 0xfc, 0xfc, 0x81, 0xfe, 0x1e,
  0x00, 0xfc, 0xfd, 0xf4, 0x01, 0x08, 0xa8, 0xff, 0x02, 0x02, 0x00, 0x19,
  0x00, 0x00, 0x06, 0x00, 0x08, 0x00, 0x04, 0x00, 0x06, 0x00, 0x00, 0x00,
  0x04, 0x00, 0x00, 0x00, 0x04, 0x00, 0x00, 0x00, 0xc7, 0x1b, 0x00, 0x00,
  0xd0, 0xf7, 0xff, 0xff, 0xd4, 0xf7, 0xff, 0xff, 0x0f, 0x00, 0x00, 0x00,
  0x4d, 0x4c, 0x49, 0x52, 0x20, 0x43, 0x6f, 0x6e, 0x76, 0x65, 0x72, 0x74,
  0x65, 0x64, 0x2e, 0x00, 0x01, 0x00, 0x00, 0x00, 0x14, 0x00, 0x00, 0x00,
  0x00, 0x00, 0x0e, 0x00, 0x18, 0x00, 0x14, 0x00, 0x10, 0x00, 0x0c, 0x00,
  0x08, 0x00, 0x04, 0x00, 0x0e, 0x00, 0x00, 0x00, 0x14, 0x00, 0x00, 0x00,
  0x1c, 0x00, 0x00, 0x00, 0x64, 0x01, 0x00, 0x00, 0x68, 0x01, 0x00, 0x00,
  0x6c, 0x01, 0x00, 0x00, 0x04, 0x00, 0x00, 0x00, 0x6d, 0x61, 0x69, 0x6e,
  0x00, 0x00, 0x00, 0x00, 0x06, 0x00, 0x00, 0x00, 0x2c, 0x01, 0x00, 0x00,
  0xdc, 0x00, 0x00, 0x00, 0x90, 0x00, 0x00, 0x00, 0x58, 0x00, 0x00, 0x00,
  0x34, 0x00, 0x00, 0x00, 0x04, 0x00, 0x00, 0x00, 0xde, 0xff, 0xff, 0xff,
  0x0c, 0x00, 0x00, 0x00, 0x10, 0x00, 0x00, 0x00, 0x03, 0x00, 0x00, 0x00,
  0x01, 0x00, 0x00, 0x00, 0x0c, 0x00, 0x00, 0x00, 0x01, 0x00, 0x00, 0x00,
  0x0b, 0x00, 0x00, 0x00, 0x00, 0x00, 0x0a, 0x00, 0x10, 0x00, 0x0c, 0x00,
  0x08, 0x00, 0x04, 0x00, 0x0a, 0x00, 0x00, 0x00, 0x0c, 0x00, 0x00, 0x00,
  0x10, 0x00, 0x00, 0x00, 0x02, 0x00, 0x00, 0x00, 0x01, 0x00, 0x00, 0x00,
  0x0b, 0x00, 0x00, 0x00, 0x01, 0x00, 0x00, 0x00, 0x0a, 0x00, 0x00, 0x00,
  0x92, 0xff, 0xff, 0xff, 0x14, 0x00, 0x00, 0x00, 0x00, 0x00, 0x00, 0x08,
  0x10, 0x00, 0x00, 0x00, 0x14, 0x00, 0x00, 0x00, 0x01, 0x00, 0x00, 0x00,
  0xa8, 0xf8, 0xff, 0xff, 0x01, 0x00, 0x00, 0x00, 0x0a, 0x00, 0x00, 0x00,
  0x03, 0x00, 0x00, 0x00, 0x09, 0x00, 0x00, 0x00, 0x02, 0x00, 0x00, 0x00,
  0x01, 0x00, 0x00, 0x00, 0xc6, 0xff, 0xff, 0xff, 0x14, 0x00, 0x00, 0x00,
  0x00, 0x00, 0x00, 0x08, 0x14, 0x00, 0x00, 0x00, 0x18, 0x00, 0x00, 0x00,
  0x01, 0x00, 0x00, 0x00, 0xb6, 0xff, 0xff, 0xff, 0x00, 0x00, 0x00, 0x01,
  0x01, 0x00, 0x00, 0x00, 0x09, 0x00, 0x00, 0x00, 0x03, 0x00, 0x00, 0x00,
  0x08, 0x00, 0x00, 0x00, 0x04, 0x00, 0x00, 0x00, 0x03, 0x00, 0x00, 0x00,
  0x00, 0x00, 0x0e, 0x00, 0x1a, 0x00, 0x14, 0x00, 0x10, 0x00, 0x0c, 0x00,
  0x0b, 0x00, 0x04, 0x00, 0x0e, 0x00, 0x00, 0x00, 0x1c, 0x00, 0x00, 0x00,
  0x00, 0x00, 0x00, 0x08, 0x1c, 0x00, 0x00, 0x00, 0x20, 0x00, 0x00, 0x00,
  0x01, 0x00, 0x00, 0x00, 0x00, 0x00, 0x06, 0x00, 0x08, 0x00, 0x07, 0x00,
  0x06, 0x00, 0x00, 0x00, 0x00, 0x00, 0x00, 0x01, 0x01, 0x00, 0x00, 0x00,
  0x08, 0x00, 0x00, 0x00, 0x03, 0x00, 0x00, 0x00, 0x07, 0x00, 0x00, 0x00,
  0x06, 0x00, 0x00, 0x00, 0x05, 0x00, 0x00, 0x00, 0x00, 0x00, 0x0a, 0x00,
  0x0c, 0x00, 0x00, 0x00, 0x08, 0x00, 0x04, 0x00, 0x0a, 0x00, 0x00, 0x00,
  0x08, 0x00, 0x00, 0x00, 0x0c, 0x00, 0x00, 0x00, 0x01, 0x00, 0x00, 0x00,
  0x07, 0x00, 0x00, 0x00, 0x01, 0x00, 0x00, 0x00, 0x00, 0x00, 0x00, 0x00,
  0x01, 0x00, 0x00, 0x00, 0x0c, 0x00, 0x00, 0x00, 0x01, 0x00, 0x00, 0x00,
  0x00, 0x00, 0x00, 0x00, 0x0d, 0x00, 0x00, 0x00, 0x50, 0x06, 0x00, 0x00,
  0xb4, 0x05, 0x00, 0x00, 0x2c, 0x05, 0x00, 0x00, 0xb0, 0x04, 0x00, 0x00,
  0x44, 0x04, 0x00, 0x00, 0xd0, 0x03, 0x00, 0x00, 0x64, 0x03, 0x00, 0x00,
  0xf0, 0x02, 0x00, 0x00, 0x2c, 0x02, 0x00, 0x00, 0x78, 0x01, 0x00, 0x00,
  0xdc, 0x00, 0x00, 0x00, 0x60, 0x00, 0x00, 0x00, 0x04, 0x00, 0x00, 0x00,
  0xfa, 0xf9, 0xff, 0xff, 0x00, 0x00, 0x00, 0x01, 0x14, 0x00, 0x00, 0x00,
  0x1c, 0x00, 0x00, 0x00, 0x1c, 0x00, 0x00, 0x00, 0x0d, 0x00, 0x00, 0x00,
  0x34, 0x00, 0x00, 0x00, 0x02, 0x00, 0x00, 0x00, 0xff, 0xff, 0xff, 0xff,
  0x01, 0x00, 0x00, 0x00, 0xe4, 0xf9, 0xff, 0xff, 0x19, 0x00, 0x00, 0x00,
  0x53, 0x74, 0x61, 0x74, 0x65, 0x66, 0x75, 0x6c, 0x50, 0x61, 0x72, 0x74,
  0x69, 0x74, 0x69, 0x6f, 0x6e, 0x65, 0x64, 0x43, 0x61, 0x6c, 0x6c, 0x3a,
  0x30, 0x00, 0x00, 0x00, 0x02, 0x00, 0x00, 0x00, 0x01, 0x00, 0x00, 0x00,
  0x01, 0x00, 0x00, 0x00, 0x96, 0xfd, 0xff, 0xff, 0x00, 0x00, 0x00, 0x01,
  0x18, 0x00, 0x00, 0x00, 0x20, 0x00, 0x00, 0x00, 0x3c, 0x00, 0x00, 0x00,
  0x0c, 0x00, 0x00, 0x00, 0x00, 0x00, 0x00, 0x09, 0x50, 0x00, 0x00, 0x00,
  0x02, 0x00, 0x00, 0x00, 0xff, 0xff, 0xff, 0xff, 0x01, 0x00, 0x00, 0x00,
  0xe4, 0xfa, 0xff, 0xff, 0x08, 0x00, 0x00, 0x00, 0x10, 0x00, 0x00, 0x00,
  0x01, 0x00, 0x00, 0x00, 0x80, 0xff, 0xff, 0xff, 0xff, 0xff, 0xff, 0xff,
  0x01, 0x00, 0x00, 0x00, 0x00, 0x00, 0x80, 0x3b, 0x1a, 0x00, 0x00, 0x00,
  0x53, 0x74, 0x61, 0x74, 0x65, 0x66, 0x75, 0x6c, 0x50, 0x61, 0x72, 0x74,
  0x69, 0x74, 0x69, 0x6f, 0x6e, 0x65, 0x64, 0x43, 0x61, 0x6c, 0x6c, 0x3a,
  0x30, 0x31, 0x00, 0x00, 0x02, 0x00, 0x00, 0x00, 0x01, 0x00, 0x00, 0x00,
  0x01, 0x00, 0x00, 0x00, 0x0e, 0xfe, 0xff, 0xff, 0x00, 0x00, 0x00, 0x01,
  0x18, 0x00, 0x00, 0x00, 0x20, 0x00, 0x00, 0x00, 0x40, 0x00, 0x00, 0x00,
  0x0b, 0x00, 0x00, 0x00, 0x00, 0x00, 0x00, 0x09, 0x70, 0x00, 0x00, 0x00,
  0x02, 0x00, 0x00, 0x00, 0xff, 0xff, 0xff, 0xff, 0x01, 0x00, 0x00, 0x00,
  0x5c, 0xfb, 0xff, 0xff, 0x08, 0x00, 0x00, 0x00, 0x14, 0x00, 0x00, 0x00,
  0x01, 0x00, 0x00, 0x00, 0xd0, 0xff, 0xff, 0xff, 0xff, 0xff, 0xff, 0xff,
  0x00, 0x00, 0x00, 0x00, 0x01, 0x00, 0x00, 0x00, 0x57, 0x17, 0x62, 0x3c,
  0x34, 0x00, 0x00, 0x00, 0x73, 0x65, 0x71, 0x75, 0x65, 0x6e, 0x74, 0x69,
  0x61, 0x6c, 0x2f, 0x64, 0x65, 0x6e, 0x73, 0x65, 0x5f, 0x32, 0x2f, 0x4d,
  0x61, 0x74, 0x4d, 0x75, 0x6c, 0x3b, 0x73, 0x65, 0x71, 0x75, 0x65, 0x6e,
  0x74, 0x69, 0x61, 0x6c, 0x2f, 0x64, 0x65, 0x6e, 0x73, 0x65, 0x5f, 0x32,
  0x2f, 0x42, 0x69, 0x61, 0x73, 0x41, 0x64, 0x64, 0x00, 0x00, 0x00, 0x00,
  0x02, 0x00, 0x00, 0x00, 0x01, 0x00, 0x00, 0x00, 0x01, 0x00, 0x00, 0x00,
  0xa6, 0xfe, 0xff, 0xff, 0x00, 0x00, 0x00, 0x01, 0x18, 0x00, 0x00, 0x00,
  0x20, 0x00, 0x00, 0x00, 0x40, 0x00, 0x00, 0x00, 0x0a, 0x00, 0x00, 0x00,
  0x00, 0x00, 0x00, 0x09, 0x88, 0x00, 0x00, 0x00, 0x02, 0x00, 0x00, 0x00,
  0xff, 0xff, 0xff, 0xff, 0x20, 0x00, 0x00, 0x00, 0xf4, 0xfb, 0xff, 0xff,
  0x08, 0x00, 0x00, 0x00, 0x14, 0x00, 0x00, 0x00, 0x01, 0x00, 0x00, 0x00,
  0x80, 0xff, 0xff, 0xff, 0xff, 0xff, 0xff, 0xff, 0x00, 0x00, 0x00, 0x00,
  0x01, 0x00, 0x00, 0x00, 0xe0, 0xb0, 0xed, 0x3c, 0x4c, 0x00, 0x00, 0x00,
  0x73, 0x65, 0x71, 0x75, 0x65, 0x6e, 0x74, 0x69, 0x61, 0x6c, 0x2f, 0x64,
  0x65, 0x6e, 0x73, 0x65, 0x5f, 0x31, 0x2f, 0x4d, 0x61, 0x74, 0x4d, 0x75,
  0x6c, 0x3b, 0x73, 0x65, 0x71, 0x75, 0x65, 0x6e, 0x74, 0x69, 0x61, 0x6c,
  0x2f, 0x64, 0x65, 0x6e, 0x73, 0x65, 0x5f, 0x31, 0x2f, 0x52, 0x65, 0x6c,
  0x75, 0x3b, 0x73, 0x65, 0x71, 0x75, 0x65, 0x6e, 0x74, 0x69, 0x61, 0x6c,
  0x2f, 0x64, 0x65, 0x6e, 0x73, 0x65, 0x5f, 0x31, 0x2f, 0x42, 0x69, 0x61,
  0x73, 0x41, 0x64, 0x64, 0x00, 0x00, 0x00, 0x00, 0x02, 0x00, 0x00, 0x00,
  0x01, 0x00, 0x00, 0x00, 0x20, 0x00, 0x00, 0x00, 0x56, 0xff, 0xff, 0xff,
  0x00, 0x00, 0x00, 0x01, 0x18, 0x00, 0x00, 0x00, 0x20, 0x00, 0x00, 0x00,
  0x40, 0x00, 0x00, 0x00, 0x09, 0x00, 0x00, 0x00, 0x00, 0x00, 0x00, 0x09,
  0x80, 0x00, 0x00, 0x00, 0x02, 0x00, 0x00, 0x00, 0xff, 0xff, 0xff, 0xff,
  0x40, 0x00, 0x00, 0x00, 0xa4, 0xfc, 0xff, 0xff, 0x08, 0x00, 0x00, 0x00,
  0x14, 0x00, 0x00, 0x00, 0x01, 0x00, 0x00, 0x00, 0x80, 0xff, 0xff, 0xff,
  0xff, 0xff, 0xff, 0xff, 0x00, 0x00, 0x00, 0x00, 0x01, 0x00, 0x00, 0x00,
  0x60, 0x88, 0x2a, 0x3c, 0x46, 0x00, 0x00, 0x00, 0x73, 0x65, 0x71, 0x75,
  0x65, 0x6e, 0x74, 0x69, 0x61, 0x6c, 0x2f, 0x64, 0x65, 0x6e, 0x73, 0x65,
  0x2f, 0x4d, 0x61, 0x74, 0x4d, 0x75, 0x6c, 0x3b, 0x73, 0x65, 0x71, 0x75,
  0x65, 0x6e, 0x74, 0x69, 0x61, 0x6c, 0x2f, 0x64, 0x65, 0x6e, 0x73, 0x65,
  0x2f, 0x52, 0x65, 0x6c, 0x75, 0x3b, 0x73, 0x65, 0x71, 0x75, 0x65, 0x6e,
  0x74, 0x69, 0x61, 0x6c, 0x2f, 0x64, 0x65, 0x6e, 0x73, 0x65, 0x2f, 0x42,
  0x69, 0x61, 0x73, 0x41, 0x64, 0x64, 0x00, 0x00, 0x02, 0x00, 0x00, 0x00,
  0x01, 0x00, 0x00, 0x00, 0x40, 0x00, 0x00, 0x00, 0x00, 0x00, 0x16, 0x00,
  0x20, 0x00, 0x1c, 0x00, 0x1b, 0x00, 0x14, 0x00, 0x10, 0x00, 0x0c, 0x00,
  0x00, 0x00, 0x00, 0x00, 0x08, 0x00, 0x07, 0x00, 0x16, 0x00, 0x00, 0x00,
  0x00, 0x00, 0x00, 0x01, 0x18, 0x00, 0x00, 0x00, 0x20, 0x00, 0x00, 0x00,
  0x40, 0x00, 0x00, 0x00, 0x08, 0x00, 0x00, 0x00, 0x00, 0x00, 0x00, 0x09,
  0x48, 0x00, 0x00, 0x00, 0x02, 0x00, 0x00, 0x00, 0xff, 0xff, 0xff, 0xff,
  0x01, 0x00, 0x00, 0x00, 0x64, 0xfd, 0xff, 0xff, 0x08, 0x00, 0x00, 0x00,
  0x14, 0x00, 0x00, 0x00, 0x01, 0x00, 0x00, 0x00, 0x02, 0x00, 0x00, 0x00,
  0x00, 0x00, 0x00, 0x00, 0x00, 0x00, 0x00, 0x00, 0x01, 0x00, 0x00, 0x00,
  0xb5, 0xd2, 0x16, 0x3a, 0x0c, 0x00, 0x00, 0x00, 0x74, 0x66, 0x6c, 0x2e,
  0x71, 0x75, 0x61, 0x6e, 0x74, 0x69, 0x7a, 0x65, 0x00, 0x00, 0x00, 0x00,
  0x02, 0x00, 0x00, 0x00, 0x01, 0x00, 0x00, 0x00, 0x01, 0x00, 0x00, 0x00,
  0xda, 0xfd, 0xff, 0xff, 0x00, 0x00, 0x00, 0x01, 0x14, 0x00, 0x00, 0x00,
  0x34, 0x00, 0x00, 0x00, 0x07, 0x00, 0x00, 0x00, 0x00, 0x00, 0x00, 0x09,
  0x44, 0x00, 0x00, 0x00, 0xc4, 0xfd, 0xff, 0xff, 0x08, 0x00, 0x00, 0x00,
  0x14, 0x00, 0x00, 0x00, 0x01, 0x00, 0x00, 0x00, 0x00, 0x00, 0x00, 0x00,
  0x00, 0x00, 0x00, 0x00, 0x00, 0x00, 0x00, 0x00, 0x01, 0x00, 0x00, 0x00,
  0xd1, 0x9a, 0x90, 0x3e, 0x17, 0x00, 0x00, 0x00, 0x73, 0x65, 0x71, 0x75,
  0x65, 0x6e, 0x74, 0x69, 0x61, 0x6c, 0x2f, 0x64, 0x65, 0x6e, 0x73, 0x65,
  0x2f, 0x4d, 0x61, 0x74, 0x4d, 0x75, 0x6c, 0x00, 0x02, 0x00, 0x00, 0x00,
  0x40, 0x00, 0x00, 0x00, 0x01, 0x00, 0x00, 0x00, 0x42, 0xfe, 0xff, 0xff,
  0x00, 0x00, 0x00, 0x01, 0x14, 0x00, 0x00, 0x00, 0x30, 0x00, 0x00, 0x00,
  0x06, 0x00, 0x00, 0x00, 0x00, 0x00, 0x00, 0x02, 0x50, 0x00, 0x00, 0x00,
  0x2c, 0xfe, 0xff, 0xff, 0x08, 0x00, 0x00, 0x00, 0x10, 0x00, 0x00, 0x00,
  0x01, 0x00, 0x00, 0x00, 0x00, 0x00, 0x00, 0x00, 0x00, 0x00, 0x00, 0x00,
  0x01, 0x00, 0x00, 0x00, 0x77, 0x63, 0x2a, 0x39, 0x27, 0x00, 0x00, 0x00,
  0x73, 0x65, 0x71, 0x75, 0x65, 0x6e, 0x74, 0x69, 0x61, 0x6c, 0x2f, 0x64,
  0x65, 0x6e, 0x73, 0x65, 0x2f, 0x42, 0x69, 0x61, 0x73, 0x41, 0x64, 0x64,
  0x2f, 0x52, 0x65, 0x61, 0x64, 0x56, 0x61, 0x72, 0x69, 0x61, 0x62, 0x6c,
  0x65, 0x4f, 0x70, 0x00, 0x01, 0x00, 0x00, 0x00, 0x40, 0x00, 0x00, 0x00,
  0xb2, 0xfe, 0xff, 0xff, 0x00, 0x00, 0x00, 0x01, 0x14, 0x00, 0x00, 0x00,
  0x30, 0x00, 0x00, 0x00, 0x05, 0x00, 0x00, 0x00, 0x00, 0x00, 0x00, 0x09,
  0x44, 0x00, 0x00, 0x00, 0x9c, 0xfe, 0xff, 0xff, 0x08, 0x00, 0x00, 0x00,
  0x10, 0x00, 0x00, 0x00, 0x01, 0x00, 0x00, 0x00, 0x00, 0x00, 0x00, 0x00,
  0x00, 0x00, 0x00, 0x00, 0x01, 0x00, 0x00, 0x00, 0x43, 0x8d, 0x96, 0x3d,
  0x19, 0x00, 0x00, 0x00, 0x73, 0x65, 0x71, 0x75, 0x65, 0x6e, 0x74, 0x69,
  0x61, 0x6c, 0x2f, 0x64, 0x65, 0x6e, 0x73, 0x65, 0x5f, 0x31, 0x2f, 0x4d,
  0x61, 0x74, 0x4d, 0x75, 0x6c, 0x00, 0x00, 0x00, 0x02, 0x00, 0x00, 0x00,
  0x20, 0x00, 0x00, 0x00, 0x40, 0x00, 0x00, 0x00, 0x1a, 0xff, 0xff, 0xff,
  0x00, 0x00, 0x00, 0x01, 0x14, 0x00, 0x00, 0x00, 0x34, 0x00, 0x00, 0x00,
  0x04, 0x00, 0x00, 0x00, 0x00, 0x00, 0x00, 0x02, 0x58, 0x00, 0x00, 0x00,
  0x04, 0xff, 0xff, 0xff, 0x08, 0x00, 0x00, 0x00, 0x14, 0x00, 0x00, 0x00,
  0x01, 0x00, 0x00, 0x00, 0x00, 0x00, 0x00, 0x00, 0x00, 0x00, 0x00, 0x00,
  0x00, 0x00, 0x00, 0x00, 0x01, 0x00, 0x00, 0x00, 0x04, 0x94, 0x48, 0x3a,
  0x29, 0x00, 0x00, 0x00, 0x73, 0x65, 0x71, 0x75, 0x65, 0x6e, 0x74, 0x69,
  0x61, 0x6c, 0x2f, 0x64, 0x65, 0x6e, 0x73, 0x65, 0x5f, 0x31, 0x2f, 0x42,
  0x69, 0x61, 0x73, 0x41, 0x64, 0x64, 0x2f, 0x52, 0x65, 0x61, 0x64, 0x56,
  0x61, 0x72, 0x69, 0x61, 0x62, 0x6c, 0x65, 0x4f, 0x70, 0x00, 0x00, 0x00,
  0x01, 0x00, 0x00, 0x00, 0x20, 0x00, 0x00, 0x00, 0x92, 0xff, 0xff, 0xff,
  0x00, 0x00, 0x00, 0x01, 0x14, 0x00, 0x00, 0x00, 0x34, 0x00, 0x00, 0x00,
  0x03, 0x00, 0x00, 0x00, 0x00, 0x00, 0x00, 0x09, 0x48, 0x00, 0x00, 0x00,
  0x7c, 0xff, 0xff, 0xff, 0x08, 0x00, 0x00, 0x00, 0x14, 0x00, 0x00, 0x00,
  0x01, 0x00, 0x00, 0x00, 0x00, 0x00, 0x00, 0x00, 0x00, 0x00, 0x00, 0x00,
  0x00, 0x00, 0x00, 0x00, 0x01, 0x00, 0x00, 0x00, 0xbd, 0x6c, 0xca, 0x3b,
  0x19, 0x00, 0x00, 0x00, 0x73, 0x65, 0x71, 0x75, 0x65, 0x6e, 0x74, 0x69,
  0x61, 0x6c, 0x2f, 0x64, 0x65, 0x6e, 0x73, 0x65, 0x5f, 0x32, 0x2f, 0x4d,
  0x61, 0x74, 0x4d, 0x75, 0x6c, 0x00, 0x00, 0x00, 0x02, 0x00, 0x00, 0x00,
  0x01, 0x00, 0x00, 0x00, 0x20, 0x00, 0x00, 0x00, 0x00, 0x00, 0x16, 0x00,
  0x1c, 0x00, 0x18, 0x00, 0x17, 0x00, 0x10, 0x00, 0x0c, 0x00, 0x08, 0x00,
  0x00, 0x00, 0x00, 0x00, 0x00, 0x00, 0x07, 0x00, 0x16, 0x00, 0x00, 0x00,
  0x00, 0x00, 0x00, 0x01, 0x20, 0x00, 0x00, 0x00, 0x3c, 0x00, 0x00, 0x00,
  0x02, 0x00, 0x00, 0x00, 0x00, 0x00, 0x00, 0x02, 0x60, 0x00, 0x00, 0x00,
  0x0c, 0x00, 0x0c, 0x00, 0x00, 0x00, 0x00, 0x00, 0x08, 0x00, 0x04, 0x00,
  0x0c, 0x00, 0x00, 0x00, 0x08, 0x00, 0x00, 0x00, 0x10, 0x00, 0x00, 0x00,
  0x01, 0x00, 0x00, 0x00, 0x00, 0x00, 0x00, 0x00, 0x00, 0x00, 0x00, 0x00,
  0x01, 0x00, 0x00, 0x00, 0x87, 0xf2, 0x3b, 0x39, 0x29, 0x00, 0x00, 0x00,
  0x73, 0x65, 0x71, 0x75, 0x65, 0x6e, 0x74, 0x69, 0x61, 0x6c, 0x2f, 0x64,
  0x65, 0x6e, 0x73, 0x65, 0x5f, 0x32, 0x2f, 0x42, 0x69, 0x61, 0x73, 0x41,
  0x64, 0x64, 0x2f, 0x52, 0x65, 0x61, 0x64, 0x56, 0x61, 0x72, 0x69, 0x61,
  0x62, 0x6c, 0x65, 0x4f, 0x70, 0x00, 0x00, 0x00, 0x01, 0x00, 0x00, 0x00,
  0x01, 0x00, 0x00, 0x00, 0x00, 0x00, 0x16, 0x00, 0x1c, 0x00, 0x18, 0x00,
  0x00, 0x00, 0x14, 0x00, 0x10, 0x00, 0x0c, 0x00, 0x00, 0x00, 0x00, 0x00,
  0x08, 0x00, 0x07, 0x00, 0x16, 0x00, 0x00, 0x00, 0x00, 0x00, 0x00, 0x01,
  0x14, 0x00, 0x00, 0x00, 0x20, 0x00, 0x00, 0x00, 0x20, 0x00, 0x00, 0x00,
  0x01, 0x00, 0x00, 0x00, 0x3c, 0x00, 0x00, 0x00, 0x02, 0x00, 0x00, 0x00,
  0xff, 0xff, 0xff, 0xff, 0x01, 0x00, 0x00, 0x00, 0x04, 0x00, 0x04, 0x00,
  0x04, 0x00, 0x00, 0x00, 0x1d, 0x00, 0x00, 0x00, 0x73, 0x65, 0x72, 0x76,
  0x69, 0x6e, 0x67, 0x5f, 0x64, 0x65, 0x66, 0x61, 0x75, 0x6c, 0x74, 0x5f,
  0x64, 0x65, 0x6e, 0x73, 0x65, 0x5f, 0x69, 0x6e, 0x70, 0x75, 0x74, 0x3a,
  0x30, 0x00, 0x00, 0x00, 0x02, 0x00, 0x00, 0x00, 0x01, 0x00, 0x00, 0x00,
  0x01, 0x00, 0x00, 0x00, 0x04, 0x00, 0x00, 0x00, 0x58, 0x00, 0x00, 0x00,
  0x38, 0x00, 0x00, 0x00, 0x18, 0x00, 0x00, 0x00, 0x04, 0x00, 0x00, 0x00,
  0xe0, 0xff, 0xff, 0xff, 0x06, 0x00, 0x00, 0x00, 0x02, 0x00, 0x00, 0x00,
  0x00, 0x00, 0x00, 0x06, 0xf0, 0xff, 0xff, 0xff, 0x0e, 0x00, 0x00, 0x00,
  0x02, 0x00, 0x00, 0x00, 0x00, 0x00, 0x00, 0x0e, 0x0c, 0x00, 0x10, 0x00,
  0x0f, 0x00, 0x00, 0x00, 0x08, 0x00, 0x04, 0x00, 0x0c, 0x00, 0x00, 0x00,
  0x09, 0x00, 0x00, 0x00, 0x04, 0x00, 0x00, 0x00, 0x00, 0x00, 0x00, 0x09,
  0x0c, 0x00, 0x0c, 0x00, 0x0b, 0x00, 0x00, 0x00, 0x00, 0x00, 0x04, 0x00,
  0x0c, 0x00, 0x00, 0x00, 0x72, 0x00, 0x00, 0x00, 0x00, 0x00, 0x00, 0x72
};
unsigned int g_model_len = 5352;
